<?xml version="1.0"?>
<opencv_storage>
<stage5>
  <maxWeakCount>10</maxWeakCount>
  <stageThreshold>-1.8968088626861572e+00</stageThreshold>
  <weakClassifiers>
    <_>
      <internalNodes>
        0 -1 93922 1.3579635880887508e-02</internalNodes>
      <leafValues>
        -8.0788677930831909e-01 1.</leafValues></_>
    <_>
      <internalNodes>
        0 -1 221090 1.8242560327053070e-03</internalNodes>
      <leafValues>
        -5.5410641431808472e-01 5.1324057579040527e-01</leafValues></_>
    <_>
      <internalNodes>
        0 -1 43298 1.8130439566448331e-03</internalNodes>
      <leafValues>
        -4.8927932977676392e-01 3.9562866091728210e-01</leafValues></_>
    <_>
      <internalNodes>
        0 -1 160001 1.7841741442680359e-02</internalNodes>
      <leafValues>
        -4.3447732925415039e-01 4.0025231242179871e-01</leafValues></_>
    <_>
      <internalNodes>
        0 -1 45493 7.3258802294731140e-02</internalNodes>
      <leafValues>
        1.5777899324893951e-01 -9.5123445987701416e-01</leafValues></_>
    <_>
      <internalNodes>
        0 -1 147353 -6.2344600446522236e-03</internalNodes>
      <leafValues>
        2.7228766679763794e-01 -7.0091283321380615e-01</leafValues></_>
    <_>
      <internalNodes>
        0 -1 235486 -3.1945710070431232e-03</internalNodes>
      <leafValues>
        3.3283093571662903e-01 -5.1420587301254272e-01</leafValues></_>
    <_>
      <internalNodes>
        0 -1 208640 2.8937833849340677e-04</internalNodes>
      <leafValues>
        -3.1434088945388794e-01 6.1418080329895020e-01</leafValues></_>
    <_>
      <internalNodes>
        0 -1 230493 2.6360681280493736e-02</internalNodes>
      <leafValues>
        2.4636282026767731e-01 -7.4161487817764282e-01</leafValues></_>
    <_>
      <internalNodes>
        0 -1 19541 1.6940344125032425e-02</internalNodes>
      <leafValues>
        -2.3421549797058105e-01 8.9087396860122681e-01</leafValues></_></weakClassifiers></stage5>
</opencv_storage>
