<?xml version="1.0"?>
<opencv_storage>
<stage4>
  <maxWeakCount>14</maxWeakCount>
  <stageThreshold>-1.9429422616958618e+00</stageThreshold>
  <weakClassifiers>
    <_>
      <internalNodes>
        0 -1 93922 1.5055799856781960e-02</internalNodes>
      <leafValues>
        -8.0141842365264893e-01 6.8750000000000000e-01</leafValues></_>
    <_>
      <internalNodes>
        0 -1 191272 4.6678646467626095e-03</internalNodes>
      <leafValues>
        -6.0547786951065063e-01 2.9441162943840027e-01</leafValues></_>
    <_>
      <internalNodes>
        0 -1 78281 -1.6500372439622879e-03</internalNodes>
      <leafValues>
        4.4460013508796692e-01 -3.2089444994926453e-01</leafValues></_>
    <_>
      <internalNodes>
        0 -1 172824 -1.5167294070124626e-02</internalNodes>
      <leafValues>
        1.8705180287361145e-01 -7.8524529933929443e-01</leafValues></_>
    <_>
      <internalNodes>
        0 -1 165225 -2.4496368132531643e-03</internalNodes>
      <leafValues>
        3.2266733050346375e-01 -4.7856181859970093e-01</leafValues></_>
    <_>
      <internalNodes>
        0 -1 35222 -7.9618394374847412e-02</internalNodes>
      <leafValues>
        5.7143259048461914e-01 -2.6786345243453979e-01</leafValues></_>
    <_>
      <internalNodes>
        0 -1 197387 -7.8400596976280212e-03</internalNodes>
      <leafValues>
        2.2451692819595337e-01 -5.9433627128601074e-01</leafValues></_>
    <_>
      <internalNodes>
        0 -1 34171 -4.5171333476901054e-03</internalNodes>
      <leafValues>
        2.6551568508148193e-01 -4.7172272205352783e-01</leafValues></_>
    <_>
      <internalNodes>
        0 -1 176741 -9.7947171889245510e-04</internalNodes>
      <leafValues>
        2.4719086289405823e-01 -4.6437540650367737e-01</leafValues></_>
    <_>
      <internalNodes>
        0 -1 49055 3.1371047953143716e-04</internalNodes>
      <leafValues>
        -4.3849599361419678e-01 2.9532489180564880e-01</leafValues></_>
    <_>
      <internalNodes>
        0 -1 221299 -1.3546066358685493e-02</internalNodes>
      <leafValues>
        7.3443299531936646e-01 -2.1672976016998291e-01</leafValues></_>
    <_>
      <internalNodes>
        0 -1 78960 -4.9304484855383635e-04</internalNodes>
      <leafValues>
        5.0739258527755737e-01 -2.6238119602203369e-01</leafValues></_>
    <_>
      <internalNodes>
        0 -1 181863 3.8512218743562698e-03</internalNodes>
      <leafValues>
        -3.7048605084419250e-01 3.4897425770759583e-01</leafValues></_>
    <_>
      <internalNodes>
        0 -1 11173 1.0833473061211407e-04</internalNodes>
      <leafValues>
        2.2185973823070526e-01 -6.7802548408508301e-01</leafValues></_></weakClassifiers></stage4>
</opencv_storage>
