<?xml version="1.0"?>
<opencv_storage>
<stage3>
  <maxWeakCount>26</maxWeakCount>
  <stageThreshold>-1.5781654119491577e+00</stageThreshold>
  <weakClassifiers>
    <_>
      <internalNodes>
        0 -1 92377 3.3340379595756531e-03</internalNodes>
      <leafValues>
        -5.0897026062011719e-01 3.7025514245033264e-01</leafValues></_>
    <_>
      <internalNodes>
        0 -1 236634 -6.3383374363183975e-03</internalNodes>
      <leafValues>
        5.3887480497360229e-01 -2.6732534170150757e-01</leafValues></_>
    <_>
      <internalNodes>
        0 -1 248550 -5.8043505996465683e-03</internalNodes>
      <leafValues>
        2.3879516124725342e-01 -3.9387291669845581e-01</leafValues></_>
    <_>
      <internalNodes>
        0 -1 90297 -3.9807930588722229e-03</internalNodes>
      <leafValues>
        2.7007848024368286e-01 -3.7404444813728333e-01</leafValues></_>
    <_>
      <internalNodes>
        0 -1 33143 2.1999828517436981e-02</internalNodes>
      <leafValues>
        -2.4474661052227020e-01 4.5247918367385864e-01</leafValues></_>
    <_>
      <internalNodes>
        0 -1 58368 -2.0404884591698647e-02</internalNodes>
      <leafValues>
        6.6747970879077911e-02 -6.7770892381668091e-01</leafValues></_>
    <_>
      <internalNodes>
        0 -1 51400 -3.4979823976755142e-03</internalNodes>
      <leafValues>
        3.6321154236793518e-01 -2.5850135087966919e-01</leafValues></_>
    <_>
      <internalNodes>
        0 -1 190813 3.7057739682495594e-03</internalNodes>
      <leafValues>
        -3.0066001415252686e-01 3.0420017242431641e-01</leafValues></_>
    <_>
      <internalNodes>
        0 -1 191479 -2.7226807549595833e-02</internalNodes>
      <leafValues>
        2.2922417521476746e-01 -3.8048711419105530e-01</leafValues></_>
    <_>
      <internalNodes>
        0 -1 156045 -1.1389398714527488e-03</internalNodes>
      <leafValues>
        5.7391518354415894e-01 -1.4764867722988129e-01</leafValues></_>
    <_>
      <internalNodes>
        0 -1 62091 -3.2255223486572504e-03</internalNodes>
      <leafValues>
        3.3998620510101318e-01 -1.9599473476409912e-01</leafValues></_>
    <_>
      <internalNodes>
        0 -1 243244 1.0945193935185671e-03</internalNodes>
      <leafValues>
        1.3187114894390106e-01 -5.1309394836425781e-01</leafValues></_>
    <_>
      <internalNodes>
        0 -1 27836 -8.9419320225715637e-02</internalNodes>
      <leafValues>
        7.2857105731964111e-01 -1.1701670289039612e-01</leafValues></_>
    <_>
      <internalNodes>
        0 -1 121594 -9.9229533225297928e-03</internalNodes>
      <leafValues>
        5.8706921339035034e-01 -7.9828113317489624e-02</leafValues></_>
    <_>
      <internalNodes>
        0 -1 35222 -6.9929510354995728e-02</internalNodes>
      <leafValues>
        4.2628255486488342e-01 -1.6633442044258118e-01</leafValues></_>
    <_>
      <internalNodes>
        0 -1 217159 -1.1385068297386169e-02</internalNodes>
      <leafValues>
        1.3964104652404785e-01 -4.4692531228065491e-01</leafValues></_>
    <_>
      <internalNodes>
        0 -1 231093 -8.9774152729660273e-04</internalNodes>
      <leafValues>
        3.0362588167190552e-01 -2.3452265560626984e-01</leafValues></_>
    <_>
      <internalNodes>
        0 -1 110040 9.5363589935004711e-04</internalNodes>
      <leafValues>
        -1.9710230827331543e-01 2.9814299941062927e-01</leafValues></_>
    <_>
      <internalNodes>
        0 -1 89010 5.8864932507276535e-03</internalNodes>
      <leafValues>
        7.6405242085456848e-02 -6.9158929586410522e-01</leafValues></_>
    <_>
      <internalNodes>
        0 -1 79114 2.9298540204763412e-02</internalNodes>
      <leafValues>
        -7.3996007442474365e-02 7.9097110033035278e-01</leafValues></_>
    <_>
      <internalNodes>
        0 -1 44585 2.2981241345405579e-02</internalNodes>
      <leafValues>
        1.2744908034801483e-01 -4.8562067747116089e-01</leafValues></_>
    <_>
      <internalNodes>
        0 -1 163384 -1.9607357680797577e-03</internalNodes>
      <leafValues>
        1.4943799376487732e-01 -3.9540940523147583e-01</leafValues></_>
    <_>
      <internalNodes>
        0 -1 186726 -1.4161237515509129e-02</internalNodes>
      <leafValues>
        -4.5636698603630066e-01 1.1907641589641571e-01</leafValues></_>
    <_>
      <internalNodes>
        0 -1 185399 -6.9948723539710045e-03</internalNodes>
      <leafValues>
        4.7901698946952820e-01 -1.1782895773649216e-01</leafValues></_>
    <_>
      <internalNodes>
        0 -1 159621 -9.7945760935544968e-03</internalNodes>
      <leafValues>
        -7.3139435052871704e-01 8.6011223495006561e-02</leafValues></_>
    <_>
      <internalNodes>
        0 -1 147991 1.0645603761076927e-02</internalNodes>
      <leafValues>
        -7.7670805156230927e-02 8.3558487892150879e-01</leafValues></_></weakClassifiers></stage3>
</opencv_storage>
