<?xml version="1.0"?>
<opencv_storage>
<stage5>
  <maxWeakCount>21</maxWeakCount>
  <stageThreshold>-1.8345230817794800e+00</stageThreshold>
  <weakClassifiers>
    <_>
      <internalNodes>
        0 -1 125463 -8.6640520021319389e-03</internalNodes>
      <leafValues>
        4.5827814936637878e-01 -5.2040326595306396e-01</leafValues></_>
    <_>
      <internalNodes>
        0 -1 98183 1.4241413446143270e-03</internalNodes>
      <leafValues>
        -2.6709198951721191e-01 5.2662992477416992e-01</leafValues></_>
    <_>
      <internalNodes>
        0 -1 3958 -1.2894132733345032e-01</internalNodes>
      <leafValues>
        2.5930202007293701e-01 -5.2935981750488281e-01</leafValues></_>
    <_>
      <internalNodes>
        0 -1 191244 2.4646329693496227e-03</internalNodes>
      <leafValues>
        -2.2004850208759308e-01 5.3197371959686279e-01</leafValues></_>
    <_>
      <internalNodes>
        0 -1 51064 -1.1335904709994793e-03</internalNodes>
      <leafValues>
        6.7778211832046509e-01 -1.6830405592918396e-01</leafValues></_>
    <_>
      <internalNodes>
        0 -1 49899 -6.7731719464063644e-03</internalNodes>
      <leafValues>
        -3.6096045374870300e-01 4.0778523683547974e-01</leafValues></_>
    <_>
      <internalNodes>
        0 -1 37644 -3.4140624105930328e-02</internalNodes>
      <leafValues>
        6.4139598608016968e-01 -1.9963958859443665e-01</leafValues></_>
    <_>
      <internalNodes>
        0 -1 43268 3.5130647011101246e-03</internalNodes>
      <leafValues>
        -1.3199490308761597e-01 7.7921801805496216e-01</leafValues></_>
    <_>
      <internalNodes>
        0 -1 135665 5.1102810539305210e-03</internalNodes>
      <leafValues>
        -2.1386995911598206e-01 5.2623784542083740e-01</leafValues></_>
    <_>
      <internalNodes>
        0 -1 125380 1.6066461103037000e-03</internalNodes>
      <leafValues>
        1.9098508358001709e-01 -5.5034720897674561e-01</leafValues></_>
    <_>
      <internalNodes>
        0 -1 112177 -4.8404236440546811e-04</internalNodes>
      <leafValues>
        5.6293278932571411e-01 -2.0201730728149414e-01</leafValues></_>
    <_>
      <internalNodes>
        0 -1 109352 3.7517421878874302e-03</internalNodes>
      <leafValues>
        -7.9957842826843262e-02 8.9515769481658936e-01</leafValues></_>
    <_>
      <internalNodes>
        0 -1 221595 -3.2082310644909739e-04</internalNodes>
      <leafValues>
        4.2982384562492371e-01 -2.1025723218917847e-01</leafValues></_>
    <_>
      <internalNodes>
        0 -1 219698 -3.6657832562923431e-02</internalNodes>
      <leafValues>
        -5.7644891738891602e-01 2.2950513660907745e-01</leafValues></_>
    <_>
      <internalNodes>
        0 -1 187471 1.0006672237068415e-03</internalNodes>
      <leafValues>
        1.4416812360286713e-01 -6.4070934057235718e-01</leafValues></_>
    <_>
      <internalNodes>
        0 -1 32912 -1.7729487735778093e-03</internalNodes>
      <leafValues>
        4.6211040019989014e-01 -2.1703600883483887e-01</leafValues></_>
    <_>
      <internalNodes>
        0 -1 56133 5.4625542834401131e-03</internalNodes>
      <leafValues>
        1.6371002793312073e-01 -6.5134173631668091e-01</leafValues></_>
    <_>
      <internalNodes>
        0 -1 177733 -9.7117875702679157e-04</internalNodes>
      <leafValues>
        7.4750536680221558e-01 -1.6537940502166748e-01</leafValues></_>
    <_>
      <internalNodes>
        0 -1 6319 8.0460757017135620e-03</internalNodes>
      <leafValues>
        -1.3070410490036011e-01 6.1740398406982422e-01</leafValues></_>
    <_>
      <internalNodes>
        0 -1 66862 -2.7526905760169029e-03</internalNodes>
      <leafValues>
        4.5477104187011719e-01 -2.2565464675426483e-01</leafValues></_>
    <_>
      <internalNodes>
        0 -1 161412 -1.0474224109202623e-03</internalNodes>
      <leafValues>
        3.5515269637107849e-01 -3.1057175993919373e-01</leafValues></_></weakClassifiers></stage5>
</opencv_storage>
