<?xml version="1.0"?>
<opencv_storage>
<stage5>
  <maxWeakCount>16</maxWeakCount>
  <stageThreshold>-1.6920782327651978e+00</stageThreshold>
  <weakClassifiers>
    <_>
      <internalNodes>
        0 -1 229868 6.0155815444886684e-03</internalNodes>
      <leafValues>
        -6.9659894704818726e-01 5.5419224500656128e-01</leafValues></_>
    <_>
      <internalNodes>
        0 -1 122754 6.3915257342159748e-03</internalNodes>
      <leafValues>
        -3.4682896733283997e-01 7.5015836954116821e-01</leafValues></_>
    <_>
      <internalNodes>
        0 -1 253157 -6.0945688746869564e-03</internalNodes>
      <leafValues>
        5.8237993717193604e-01 -3.3785745501518250e-01</leafValues></_>
    <_>
      <internalNodes>
        0 -1 254642 -1.0772163048386574e-02</internalNodes>
      <leafValues>
        4.1806584596633911e-01 -3.6351436376571655e-01</leafValues></_>
    <_>
      <internalNodes>
        0 -1 207841 -8.4902048110961914e-03</internalNodes>
      <leafValues>
        2.4202890694141388e-01 -5.9355562925338745e-01</leafValues></_>
    <_>
      <internalNodes>
        0 -1 81978 1.1974631343036890e-03</internalNodes>
      <leafValues>
        -2.5453767180442810e-01 6.0500305891036987e-01</leafValues></_>
    <_>
      <internalNodes>
        0 -1 127904 4.2779273353517056e-03</internalNodes>
      <leafValues>
        -1.3853019475936890e-01 9.3212324380874634e-01</leafValues></_>
    <_>
      <internalNodes>
        0 -1 193063 -1.6152858734130859e-03</internalNodes>
      <leafValues>
        9.3444865942001343e-01 -9.5396414399147034e-02</leafValues></_>
    <_>
      <internalNodes>
        0 -1 180766 3.4435145789757371e-04</internalNodes>
      <leafValues>
        -1.7220196127891541e-01 6.4494132995605469e-01</leafValues></_>
    <_>
      <internalNodes>
        0 -1 135643 2.6328638341510668e-05</internalNodes>
      <leafValues>
        -7.2241222858428955e-01 1.9248497486114502e-01</leafValues></_>
    <_>
      <internalNodes>
        0 -1 239953 2.7687407564371824e-03</internalNodes>
      <leafValues>
        -2.0745392143726349e-01 7.0466679334640503e-01</leafValues></_>
    <_>
      <internalNodes>
        0 -1 68778 6.0883397236466408e-03</internalNodes>
      <leafValues>
        -2.3901228606700897e-01 5.4082345962524414e-01</leafValues></_>
    <_>
      <internalNodes>
        0 -1 111577 5.5618002079427242e-03</internalNodes>
      <leafValues>
        -1.6809864342212677e-01 6.7082262039184570e-01</leafValues></_>
    <_>
      <internalNodes>
        0 -1 109893 6.4929753541946411e-02</internalNodes>
      <leafValues>
        3.5218110680580139e-01 -4.2976903915405273e-01</leafValues></_>
    <_>
      <internalNodes>
        0 -1 109194 -5.9900078922510147e-03</internalNodes>
      <leafValues>
        -8.6277568340301514e-01 1.6909205913543701e-01</leafValues></_>
    <_>
      <internalNodes>
        0 -1 258748 1.2808349856641144e-04</internalNodes>
      <leafValues>
        5.5262231826782227e-01 -3.5366582870483398e-01</leafValues></_></weakClassifiers></stage5>
</opencv_storage>
